{
  "vocab": {
    "<unk>": 0,
    "<pad>": 1,
    " ": 2,
    "=": 3,
    "v": 4,
    "a": 5,
    "l": 6,
    "k": 7,
    "y": 8,
    "r": 9,
    "i": 10,
    "c": 11,
    "h": 12,
    "o": 13,
    "n": 14,
    "e": 15,
    "s": 16,
    "j": 17,
    "ō": 18,
    "3": 19,
    ":": 20,
    "u": 21,
    "d": 22,
    "(": 23,
    "p": 24,
    "戦": 25,
    "場": 26,
    "の": 27,
    "ヴ": 28,
    "ァ": 29,
    "ル": 30,
    "キ": 31,
    "ュ": 32,
    "リ": 33,
    "ア": 34,
    ",": 35,
    "t": 36,
    ".": 37,
    "f": 38,
    "b": 39,
    ")": 40,
    "m": 41,
    "@": 42,
    "-": 43,
    "g": 44,
    "2": 45,
    "0": 46,
    "1": 47,
    "w": 48,
    "\"": 49,
    "z": 50,
    "'": 51,
    "x": 52,
    "4": 53,
    "q": 54,
    "7": 55,
    ";": 56,
    "も": 57,
    "し": 58,
    "君": 59,
    "が": 60,
    "願": 61,
    "う": 62,
    "な": 63,
    "ら": 64,
    "9": 65,
    "5": 66,
    "ū": 67,
    "３": 68,
    "誰": 69,
    "た": 70,
    "め": 71,
    "銃": 72,
    "瘡": 73,
    "灯": 74,
    "い": 75,
    "つ": 76,
    "か": 77,
    "咲": 78,
    "く": 79,
    "光": 80,
    "花": 81,
    "名": 82,
    "き": 83,
    "誓": 84,
    "赤": 85,
    "運": 86,
    "命": 87,
    "乙": 88,
    "女": 89,
    "8": 90,
    "æ": 91,
    "$": 92,
    "6": 93,
    "[": 94,
    "]": 95,
    "/": 96,
    "�": 97,
    "&": 98,
    "²": 99,
    "–": 100,
    "’": 101,
    "£": 102,
    "—": 103,
    "₤": 104,
    "~": 105,
    "é": 106,
    "%": 107,
    "+": 108,
    "†": 109,
    "‡": 110,
    "°": 111,
    "!": 112,
    "₹": 113,
    "#": 114,
    "“": 115,
    "”": 116,
    "á": 117,
    "š": 118,
    "ṯ": 119,
    "ḏ": 120,
    "‘": 121,
    "ä": 122,
    "í": 123,
    "ć": 124,
    "µ": 125,
    "å": 126,
    "β": 127,
    "ó": 128,
    "ú": 129,
    "ñ": 130,
    "ɪ": 131,
    "?": 132,
    "º": 133,
    "ā": 134,
    "ü": 135,
    "č": 136,
    "ö": 137,
    "đ": 138,
    "ô": 139,
    "ł": 140,
    "ź": 141,
    "ś": 142,
    "ń": 143,
    "ż": 144,
    "ą": 145,
    "ę": 146,
    "ß": 147,
    "δ": 148,
    "к": 149,
    "р": 150,
    "а": 151,
    "с": 152,
    "н": 153,
    "ы": 154,
    "й": 155,
    "в": 156,
    "з": 157,
    "…": 158,
    "è": 159,
    "ส": 160,
    "พ": 161,
    "ร": 162,
    "ั": 163,
    "่": 164,
    "ง": 165,
    "ก": 166,
    "ล": 167,
    "ย": 168,
    "า": 169,
    "ณ": 170,
    "ม": 171,
    "ิ": 172,
    "ต": 173,
    "เ": 174,
    "ป": 175,
    "บ": 176,
    "๊": 177,
    "ศ": 178,
    "ี": 179,
    "็": 180,
    "ญ": 181,
    "แ": 182,
    "้": 183,
    "ว": 184,
    "ห": 185,
    "ไ": 186,
    "ช": 187,
    "ซ": 188,
    "อ": 189,
    "ึ": 190,
    "ภ": 191,
    "ด": 192,
    "์": 193,
    "ค": 194,
    "ษ": 195,
    "ฐ": 196,
    "ğ": 197,
    "^": 198,
    "*": 199,
    "−": 200,
    "→": 201,
    "م": 202,
    "ي": 203,
    "س": 204,
    "د": 205,
    "ت": 206,
    "σ": 207,
    "τ": 208,
    "ί": 209,
    "μ": 210,
    "ι": 211,
    "ἰ": 212,
    "إ": 213,
    "ث": 214,
    "ἀ": 215,
    "ν": 216,
    "ο": 217,
    "α": 218,
    "χ": 219,
    "ό": 220,
    "ς": 221,
    "θ": 222,
    "ή": 223,
    "<": 224,
    "ã": 225,
    "ὑ": 226,
    "γ": 227,
    "ρ": 228,
    "έ": 229,
    "ĕ": 230,
    "ă": 231,
    "⁄": 232,
    "×": 233,
    "κ": 234,
    "ε": 235,
    "ξ": 236,
    ">": 237,
    "υ": 238,
    "є": 239,
    "λ": 240,
    "旭": 241,
    "日": 242,
    "玩": 243,
    "具": 244,
    "厂": 245,
    "肖": 246,
    "建": 247,
    "华": 248,
    "许": 249,
    "其": 250,
    "琪": 251,
    "ˈ": 252,
    "ɡ": 253,
    "ᵻ": 254,
    "ə": 255,
    "ç": 256,
    "ạ": 257,
    "ה": 258,
    "ש": 259,
    "מ": 260,
    "צ": 261,
    "´": 262,
    "`": 263,
    "周": 264,
    "同": 265,
    "侗": 266,
    "岳": 267,
    "霖": 268,
    "珂": 269,
    "豪": 270,
    "陈": 271,
    "广": 272,
    "钱": 273,
    "彩": 274,
    "谭": 275,
    "正": 276,
    "芳": 277,
    "金": 278,
    "台": 279,
    "宗": 280,
    "澤": 281,
    "劉": 282,
    "世": 283,
    "王": 284,
    "明": 285,
    "贵": 286,
    "姚": 287,
    "夫": 288,
    "人": 289,
    "李": 290,
    "春": 291,
    "孟": 292,
    "翠": 293,
    "英": 294,
    "云": 295,
    "清": 296,
    "大": 297,
    "宋": 298,
    "中": 299,
    "興": 300,
    "傳": 301,
    "ø": 302,
    "七": 303,
    "國": 304,
    "秋": 305,
    "後": 306,
    "集": 307,
    "铁": 308,
    "臂": 309,
    "膀": 310,
    "湯": 311,
    "懷": 312,
    "張": 313,
    "顯": 314,
    "韓": 315,
    "琦": 316,
    "ț": 317,
    "â": 318,
    "ş": 319,
    "ţ": 320,
    "ǎ": 321,
    "ș": 322,
    "♭": 323,
    "♯": 324,
    "‑": 325,
    "œ": 326,
    "î": 327,
    "ľ": 328,
    "​": 329,
    "ʁ": 330,
    "ʃ": 331,
    "ح": 332,
    "ص": 333,
    "ن": 334,
    "ا": 335,
    "ل": 336,
    "ف": 337,
    "ر": 338,
    "ḥ": 339,
    "ṣ": 340,
    "أ": 341,
    "ك": 342,
    "ق": 343,
    "ع": 344,
    "ة": 345,
    "ë": 346,
    "ê": 347,
    "費": 348,
    "圣": 349,
    "母": 350,
    "殿": 351,
    "晋": 352,
    "祠": 353,
    "玄": 354,
    "妙": 355,
    "观": 356,
    "景": 357,
    "灵": 358,
    "宫": 359,
    "蘇": 360,
    "堤": 361,
    "誡": 362,
    "€": 363,
    "½": 364,
    "ː": 365,
    "ɾ": 366,
    "ʲ": 367,
    "ɑ": 368,
    "à": 369,
    "ï": 370,
    "‐": 371,
    "ロ": 372,
    "ッ": 373,
    "ク": 374,
    "マ": 375,
    "ン": 376,
    "フ": 377,
    "ォ": 378,
    "テ": 379,
    "未": 380,
    "来": 381,
    "挑": 382,
    "者": 383,
    "}": 384,
    "′": 385,
    "_": 386,
    "ʒ": 387,
    "ס": 388,
    "ו": 389,
    "פ": 390,
    "제": 391,
    "독": 392,
    "립": 393,
    "보": 394,
    "병": 395,
    "연": 396,
    "대": 397,
    "부": 398,
    "ʊ": 399,
    "ˌ": 400,
    "π": 401,
    "ώ": 402,
    "織": 403,
    "部": 404,
    "里": 405,
    "沙": 406,
    "一": 407,
    "番": 408,
    "宝": 409,
    "物": 410,
    "〜": 411,
    "今": 412,
    "だ": 413,
    "っ": 414,
    "ヘ": 415,
    "ド": 416,
    "タ": 417,
    "ー": 418,
    "夕": 419,
    "イ": 420,
    "エ": 421,
    "ス": 422,
    "デ": 423,
    "シ": 424,
    "ト": 425,
    "ά": 426,
    "马": 427,
    "良": 428,
    "山": 429,
    "防": 430,
    "御": 431,
    "战": 432,
    "ù": 433,
    "п": 434,
    "т": 435,
    "и": 436,
    "ш": 437,
    "е": 438,
    "д": 439,
    "л": 440,
    "„": 441,
    "о": 442,
    "ъ": 443,
    "г": 444,
    "§": 445,
    "ɛ": 446,
    "ɒ": 447,
    "ψ": 448,
    "プ": 449,
    "ひ": 450,
    "ば": 451,
    "り": 452,
    "ん": 453,
    "坂": 454,
    "本": 455,
    "耕": 456,
    "作": 457,
    "空": 458,
    "ぐ": 459,
    "み": 460,
    "す": 461,
    "ず": 462,
    "サ": 463,
    "ブ": 464,
    "政": 465,
    "二": 466,
    "椎": 467,
    "ま": 468,
    "こ": 469,
    "と": 470,
    "可": 471,
    "愛": 472,
    "理": 473,
    "絵": 474,
    "梶": 475,
    "を": 476,
    "園": 477,
    "お": 478,
    "高": 479,
    "円": 480,
    "寺": 481,
    "さ": 482,
    "ゆ": 483,
    "る": 484,
    "劇": 485,
    "に": 486,
    "ち": 487,
    "ゃ": 488,
    "パ": 489,
    "レ": 490,
    "ツ": 491,
    "コ": 492,
    "ガ": 493,
    "ラ": 494,
    "・": 495,
    "ネ": 496,
    "ョ": 497,
    "九": 498,
    "四": 499,
    "式": 500,
    "拳": 501,
    "ج": 502,
    "ג": 503,
    "נ": 504,
    "ʔ": 505,
    "̃": 506,
    "ɔ": 507,
    "バ": 508,
    "ィ": 509,
    "ェ": 510,
    "¿": 511,
    "ḍ": 512,
    "ب": 513,
    "ī": 514,
    "″": 515,
    "³": 516,
    "ズ": 517,
    "オ": 518,
    "ニ": 519,
    "カ": 520,
    "ナ": 521,
    "ミ": 522,
    "ゥ": 523,
    "ジ": 524,
    "ダ": 525,
    "チ": 526,
    "ハ": 527,
    "ベ": 528,
    "セ": 529,
    "ゲ": 530,
    "ē": 531,
    "解": 532,
    "放": 533,
    "ř": 534,
    "ܐ": 535,
    "ܕ": 536,
    "ܝ": 537,
    "ܢ": 538,
    "ܬ": 539,
    "ذ": 540,
    "ὁ": 541,
    "ʿ": 542,
    "ȯ": 543,
    "ʻ": 544,
    "ב": 545,
    "ת": 546,
    "א": 547,
    "י": 548,
    "ז": 549,
    "ל": 550,
    "ן": 551,
    "ר": 552,
    "ם": 553,
    "ı": 554,
    "м": 555,
    "ش": 556,
    "و": 557,
    "ه": 558,
    "±": 559,
    "þ": 560,
    "ð": 561,
    "̇": 562,
    "ů": 563,
    "я": 564,
    "ц": 565,
    "ь": 566,
    "¥": 567,
    "下": 568,
    "村": 569,
    "陽": 570,
    "子": 571,
    "\\": 572,
    "≡": 573,
    "•": 574,
    "¡": 575,
    "क": 576,
    "ल": 577,
    "्": 578,
    "य": 579,
    "ा": 580,
    "ण": 581,
    "स": 582,
    "ु": 583,
    "न": 584,
    "द": 585,
    "र": 586,
    "व": 587,
    "ै": 588,
    "ह": 589,
    "ि": 590,
    "म": 591,
    "ू": 592,
    "त": 593,
    "प": 594,
    "ं": 595,
    "ग": 596,
    "₣": 597,
    "星": 598,
    "汉": 599,
    "陳": 600,
    "漢": 601,
    "あ": 602,
    "鍵": 603,
    "グ": 604,
    "ム": 605,
    "約": 606,
    "束": 607,
    "守": 608,
    "過": 609,
    "ぎ": 610,
    "去": 611,
    "思": 612,
    "出": 613,
    "ž": 614,
    "ɜ": 615,
    "ח": 616,
    "ֵ": 617,
    "ָ": 618,
    "ħ": 619,
    "̯": 620,
    "ֹ": 621,
    "ף": 622,
    "ֶ": 623,
    "邱": 624,
    "庆": 625,
    "河": 626,
    "ì": 627,
    "̍": 628,
    "⅔": 629,
    "η": 630,
    "わ": 631,
    "ぜ": 632,
    "ょ": 633,
    "れ": 634,
    "ふ": 635,
    "û": 636,
    "は": 637,
    "け": 638,
    "水": 639,
    "淹": 640,
    "―": 641,
    "ậ": 642,
    "ư": 643,
    "ớ": 644,
    "ị": 645,
    "ũ": 646,
    "ệ": 647,
    "ơ": 648,
    "ễ": 649,
    "ọ": 650,
    "ầ": 651,
    "ò": 652,
    "ấ": 653,
    "ộ": 654,
    "ỹ": 655,
    "ả": 656,
    "ứ": 657,
    "ỏ": 658,
    "ṛ": 659,
    "⅓": 660,
    "ắ": 661,
    "ử": 662,
    "ỳ": 663,
    "ữ": 664,
    "ω": 665,
    "ɽ": 666,
    "̥": 667,
    "前": 668,
    "田": 669,
    "ɐ": 670,
    "立": 671,
    "技": 672,
    "座": 673,
    "寝": 674,
    "白": 675,
    "兵": 676,
    "主": 677,
    "義": 678,
    "狐": 679,
    "͍": 680,
    "狸": 681,
    "精": 682,
    "善": 683,
    "野": 684,
    "尾": 685,
    "憑": 686,
    "付": 687,
    "ほ": 688,
    "": 689,
    "": 690,
    "х": 691,
    "ж": 692,
    "ύ": 693,
    "≤": 694,
    "|": 695,
    "攻": 696,
    "殻": 697,
    "機": 698,
    "動": 699,
    "隊": 700,
    "／": 701,
    "灼": 702,
    "熱": 703,
    "都": 704,
    "市": 705,
    "ė": 706,
    "ų": 707,
    "鋼": 708,
    "ɫ": 709,
    "ʾ": 710,
    "ܠ": 711,
    "ܗ": 712,
    "ʼ": 713,
    "ܲ": 714,
    "ܵ": 715,
    "ּ": 716,
    "ਅ": 717,
    "ਲ": 718,
    "ਹ": 719,
    "ੁ": 720,
    "ਾ": 721,
    "ء": 722,
    "আ": 723,
    "ল": 724,
    "্": 725,
    "া": 726,
    "হ": 727,
    "阿": 728,
    "拉": 729,
    "安": 730,
    "真": 731,
    "ǔ": 732,
    "胡": 733,
    "अ": 734,
    "അ": 735,
    "ള": 736,
    "്": 737,
    "ാ": 738,
    "ഹ": 739,
    "ḷ": 740,
    "알": 741,
    "라": 742,
    "́": 743,
    "ฮ": 744,
    "ੱ": 745,
    "ﷲ": 746,
    "☫": 747,
    "ノ": 748,
    "龍": 749,
    "神": 750,
    "雲": 751,
    "彼": 752,
    "方": 753,
    "雪": 754,
    "月": 755,
    "澄": 756,
    "乃": 757,
    "和": 758,
    "川": 759,
    "北": 760,
    "若": 761,
    "生": 762,
    "桜": 763,
    "ャ": 764,
    "モ": 765,
    "橘": 766,
    "芽": 767,
    "依": 768,
    "謎": 769,
    "少": 770,
    "～": 771,
    "儚": 772,
    "小": 773,
    "祈": 774,
    "古": 775,
    "焼": 776,
    "記": 777,
    "憶": 778,
    "棘": 779,
    "揺": 780,
    "ご": 781,
    "足": 782,
    "跡": 783,
    "ะ": 784,
    "น": 785,
    "覺": 786,
    "完": 787,
    "颜": 788,
    "望": 789,
    "郭": 790,
    "藥": 791,
    "師": 792,
    "剛": 793,
    "邦": 794,
    "昌": 795,
    "應": 796,
    "天": 797,
    "府": 798,
    "行": 799,
    "在": 800,
    "選": 801,
    "杜": 802,
    "充": 803,
    "洪": 804,
    "州": 805,
    "榮": 806,
    "階": 807,
    "豫": 808,
    "廬": 809,
    "藕": 810,
    "塘": 811,
    "楊": 812,
    "沂": 813,
    "酈": 814,
    "瓊": 815,
    "錡": 816,
    "畢": 817,
    "再": 818,
    "遇": 819,
    "泗": 820,
    "楚": 821,
    "化": 822,
    "吳": 823,
    "曦": 824,
    "丙": 825,
    "旦": 826,
    "史": 827,
    "彌": 828,
    "遠": 829,
    "扈": 830,
    "散": 831,
    "關": 832,
    "趙": 833,
    "蘄": 834,
    "全": 835,
    "珙": 836,
    "斯": 837,
    "波": 838,
    "信": 839,
    "德": 840,
    "規": 841,
    "火": 842,
    "礮": 843,
    "砲": 844,
    "林": 845,
    "之": 846,
    "平": 847,
    "霹": 848,
    "靂": 849,
    "球": 850,
    "鐵": 851,
    "辛": 852,
    "巳": 853,
    "泣": 854,
    "錄": 855,
    "皮": 856,
    "·": 857,
    "〈": 858,
    "⚳": 859,
    "〉": 860,
    "♀": 861,
    "①": 862,
    "ý": 863,
    "¢": 864,
    "ю": 865,
    "у": 866,
    "б": 867,
    "ὀ": 868,
    "े": 869,
    "ṃ": 870,
    "ṅ": 871,
    "ṇ": 872,
    "ṭ": 873,
    "逆": 874,
    "転": 875,
    "裁": 876,
    "判": 877,
    "ỗ": 878,
    "ʋ": 879,
    "ɳ": 880,
    "ა": 881,
    "ს": 882,
    "ო": 883,
    "მ": 884,
    "თ": 885,
    "ვ": 886,
    "რ": 887,
    "უ": 888,
    "ლ": 889,
    "ი": 890,
    "გ": 891,
    "ნ": 892,
    "ⴟ": 893,
    "ჯ": 894,
    "ⴈ": 895,
    "ⴕ": 896,
    "ქ": 897,
    "დ": 898,
    "ხ": 899,
    "ც": 900,
    "ე": 901,
    "ჳ": 902,
    "ჱ": 903,
    "ჲ": 904,
    "ტ": 905,
    "ჴ": 906,
    "წ": 907,
    "ფ": 908,
    "ჵ": 909,
    "ჰ": 910,
    "ჶ": 911,
    "φ": 912,
    "ჷ": 913,
    "ჸ": 914,
    "ყ": 915,
    "ჹ": 916,
    "ɢ": 917,
    "ჺ": 918,
    "ʕ": 919,
    "ﻋ": 920,
    "ზ": 921,
    "ბ": 922,
    "პ": 923,
    "შ": 924,
    "ჩ": 925,
    "ძ": 926,
    "კ": 927,
    "ჟ": 928,
    "ღ": 929,
    "ჭ": 930,
    "ⴂ": 931,
    "ⴌ": 932,
    "ⴃ": 933,
    "ⴀ": 934,
    "჻": 935,
    "ब": 936,
    "ई": 937,
    "﻿": 938,
    "خ": 939,
    "☉": 940,
    "th": 941,
    "in": 942,
    "the": 943,
    "an": 944,
    "er": 945,
    "on": 946,
    "re": 947,
    "ed": 948,
    "at": 949,
    "en": 950,
    "st": 951,
    "or": 952,
    "al": 953,
    "ar": 954,
    "and": 955,
    "as": 956,
    "of": 957,
    "is": 958,
    "es": 959,
    "ing": 960,
    "it": 961,
    "to": 962,
    "ro": 963,
    "ic": 964,
    "ou": 965,
    "ion": 966,
    "le": 967,
    "ch": 968,
    "se": 969,
    "am": 970,
    "il": 971,
    "ent": 972,
    "ad": 973,
    "el": 974,
    "ac": 975,
    "om": 976,
    "be": 977,
    "for": 978,
    "de": 979,
    "was": 980,
    "ur": 981,
    "ly": 982,
    "un": 983,
    "ol": 984,
    "wh": 985,
    "im": 986,
    "iv": 987,
    "ir": 988,
    "ig": 989,
    "@-": 990,
    "@-@": 991,
    "ow": 992,
    "he": 993,
    "wi": 994,
    "ter": 995,
    "con": 996,
    "ay": 997,
    "ce": 998,
    "ver": 999,
    "with": 1000,
    "ag": 1001,
    "ation": 1002,
    "us": 1003,
    "that": 1004,
    "'s": 1005,
    "by": 1006,
    "ct": 1007,
    "id": 1008,
    "ot": 1009,
    "ap": 1010,
    "su": 1011,
    "com": 1012,
    "te": 1013,
    "pl": 1014,
    "tr": 1015,
    "op": 1016,
    "rom": 1017,
    "mo": 1018,
    "av": 1019,
    "ul": 1020,
    "ne": 1021,
    "ab": 1022,
    "19": 1023,
    "all": 1024,
    "sh": 1025,
    "ain": 1026,
    "are": 1027,
    "pe": 1028,
    "ist": 1029,
    "ers": 1030,
    "ut": 1031,
    "ere": 1032,
    "res": 1033,
    "00": 1034,
    "pro": 1035,
    "um": 1036,
    "cl": 1037,
    "em": 1038,
    "from": 1039,
    "his": 1040,
    "ther": 1041,
    "et": 1042,
    "oun": 1043,
    "ies": 1044,
    "po": 1045,
    "art": 1046,
    "if": 1047,
    "est": 1048,
    "ill": 1049,
    "lo": 1050,
    "ex": 1051,
    "so": 1052,
    "man": 1053,
    "af": 1054,
    "ak": 1055,
    "were": 1056,
    "ri": 1057,
    "igh": 1058,
    "ber": 1059,
    "ast": 1060,
    "ate": 1061,
    "ard": 1062,
    "ong": 1063,
    "ich": 1064,
    "od": 1065,
    "ant": 1066,
    "qu": 1067,
    "per": 1068,
    "ish": 1069,
    "gh": 1070,
    "tw": 1071,
    "ity": 1072,
    "ated": 1073,
    "ame": 1074,
    "one": 1075,
    "au": 1076,
    "ess": 1077,
    "ort": 1078,
    "out": 1079,
    "ear": 1080,
    "ive": 1081,
    "co": 1082,
    "end": 1083,
    "red": 1084,
    "ack": 1085,
    "ie": 1086,
    "ld": 1087,
    "br": 1088,
    "had": 1089,
    "fe": 1090,
    "ge": 1091,
    "ment": 1092,
    "not": 1093,
    "der": 1094,
    "up": 1095,
    "which": 1096,
    "bo": 1097,
    "ip": 1098,
    "ian": 1099,
    "but": 1100,
    "her": 1101,
    "our": 1102,
    "ud": 1103,
    "str": 1104,
    "act": 1105,
    "wor": 1106,
    "ine": 1107,
    "ial": 1108,
    "sp": 1109,
    "ell": 1110,
    "its": 1111,
    "du": 1112,
    "ia": 1113,
    "ical": 1114,
    "ave": 1115,
    "bl": 1116,
    "ight": 1117,
    "fir": 1118,
    "ary": 1119,
    "ass": 1120,
    "ach": 1121,
    "cor": 1122,
    "this": 1123,
    "gr": 1124,
    "200": 1125,
    "aw": 1126,
    "over": 1127,
    "no": 1128,
    "land": 1129,
    "ser": 1130,
    "cr": 1131,
    "20": 1132,
    "their": 1133,
    "ous": 1134,
    "first": 1135,
    "tim": 1136,
    "fo": 1137,
    "mar": 1138,
    "pr": 1139,
    "own": 1140,
    "other": 1141,
    "si": 1142,
    "ke": 1143,
    "after": 1144,
    "age": 1145,
    "port": 1146,
    "gu": 1147,
    "me": 1148,
    "ire": 1149,
    "ould": 1150,
    "pt": 1151,
    "ind": 1152,
    "they": 1153,
    "form": 1154,
    "also": 1155,
    "ve": 1156,
    "play": 1157,
    "ition": 1158,
    "sc": 1159,
    "int": 1160,
    "comm": 1161,
    "ater": 1162,
    "comp": 1163,
    "new": 1164,
    "part": 1165,
    "ction": 1166,
    "ign": 1167,
    "ound": 1168,
    "has": 1169,
    "pres": 1170,
    "cent": 1171,
    "oc": 1172,
    "att": 1173,
    "des": 1174,
    "ure": 1175,
    "li": 1176,
    "two": 1177,
    "ev": 1178,
    "who": 1179,
    "have": 1180,
    "pre": 1181,
    "we": 1182,
    "cre": 1183,
    "18": 1184,
    "low": 1185,
    "pos": 1186,
    "off": 1187,
    "dis": 1188,
    "ally": 1189,
    "ok": 1190,
    "ence": 1191,
    "been": 1192,
    "nor": 1193,
    "ome": 1194,
    "rou": 1195,
    "she": 1196,
    "@.": 1197,
    "@.@": 1198,
    "ough": 1199,
    "ile": 1200,
    "year": 1201,
    "ph": 1202,
    "uring": 1203,
    "ite": 1204,
    "col": 1205,
    "ang": 1206,
    "ree": 1207,
    "cont": 1208,
    "vi": 1209,
    "ade": 1210,
    "ory": 1211,
    "inter": 1212,
    "jo": 1213,
    "can": 1214,
    "201": 1215,
    "ren": 1216,
    "fl": 1217,
    "old": 1218,
    "fin": 1219,
    "cord": 1220,
    "ck": 1221,
    "dr": 1222,
    "ely": 1223,
    "incl": 1224,
    "ance": 1225,
    "ved": 1226,
    "ace": 1227,
    "ations": 1228,
    "mon": 1229,
    "ship": 1230,
    "spe": 1231,
    "ice": 1232,
    "air": 1233,
    "able": 1234,
    "@,": 1235,
    "@,@": 1236,
    "urn": 1237,
    "fer": 1238,
    "eng": 1239,
    "during": 1240,
    "gro": 1241,
    "time": 1242,
    "most": 1243,
    "par": 1244,
    "when": 1245,
    "ans": 1246,
    "ted": 1247,
    "sou": 1248,
    "iz": 1249,
    "fr": 1250,
    "ty": 1251,
    "vel": 1252,
    "go": 1253,
    "min": 1254,
    "more": 1255,
    "ts": 1256,
    "gen": 1257,
    "song": 1258,
    "tem": 1259,
    "und": 1260,
    "sion": 1261,
    "ever": 1262,
    "ced": 1263,
    "work": 1264,
    "ail": 1265,
    "rough": 1266,
    "into": 1267,
    "coun": 1268,
    "ep": 1269,
    "ath": 1270,
    "fore": 1271,
    "rit": 1272,
    "ces": 1273,
    "reg": 1274,
    "ick": 1275,
    "way": 1276,
    "ied": 1277,
    "char": 1278,
    "main": 1279,
    "bec": 1280,
    "cond": 1281,
    "ten": 1282,
    "ue": 1283,
    "would": 1284,
    "ason": 1285,
    "amp": 1286,
    "sy": 1287,
    "though": 1288,
    "used": 1289,
    "him": 1290,
    "car": 1291,
    "ann": 1292,
    "ited": 1293,
    "cted": 1294,
    "day": 1295,
    "bu": 1296,
    "ma": 1297,
    "ings": 1298,
    "while": 1299,
    "ased": 1300,
    "under": 1301,
    "game": 1302,
    "ents": 1303,
    "een": 1304,
    "war": 1305,
    "includ": 1306,
    "pu": 1307,
    "some": 1308,
    "ates": 1309,
    "only": 1310,
    "fil": 1311,
    "any": 1312,
    "rel": 1313,
    "may": 1314,
    "sing": 1315,
    "son": 1316,
    "ican": 1317,
    "med": 1318,
    "mi": 1319,
    "ake": 1320,
    "kn": 1321,
    "gan": 1322,
    "ase": 1323,
    "cess": 1324,
    "je": 1325,
    "ions": 1326,
    "ild": 1327,
    "fol": 1328,
    "how": 1329,
    "os": 1330,
    "ju": 1331,
    "there": 1332,
    "les": 1333,
    "ble": 1334,
    "mus": 1335,
    "als": 1336,
    "record": 1337,
    "lar": 1338,
    "do": 1339,
    "ra": 1340,
    "them": 1341,
    "ict": 1342,
    "three": 1343,
    "about": 1344,
    "later": 1345,
    "ret": 1346,
    "vis": 1347,
    "high": 1348,
    "ens": 1349,
    "ss": 1350,
    "tow": 1351,
    "publ": 1352,
    "sel": 1353,
    "season": 1354,
    "ors": 1355,
    "through": 1356,
    "than": 1357,
    "cap": 1358,
    "produ": 1359,
    "my": 1360,
    "eld": 1361,
    "ful": 1362,
    "vie": 1363,
    "tween": 1364,
    "199": 1365,
    "between": 1366,
    "again": 1367,
    "west": 1368,
    "follow": 1369,
    "stru": 1370,
    "og": 1371,
    "num": 1372,
    "spec": 1373,
    "ger": 1374,
    "amer": 1375,
    "ational": 1376,
    "writ": 1377,
    "film": 1378,
    "where": 1379,
    "bro": 1380,
    "king": 1381,
    "ular": 1382,
    "call": 1383,
    "rele": 1384,
    "sch": 1385,
    "sub": 1386,
    "led": 1387,
    "ating": 1388,
    "ste": 1389,
    "ton": 1390,
    "pol": 1391,
    "ics": 1392,
    "gre": 1393,
    "cer": 1394,
    "second": 1395,
    "ames": 1396,
    "set": 1397,
    "view": 1398,
    "10": 1399,
    "north": 1400,
    "ult": 1401,
    "io": 1402,
    "alb": 1403,
    "then": 1404,
    "ry": 1405,
    "sur": 1406,
    "back": 1407,
    "made": 1408,
    "ished": 1409,
    "four": 1410,
    "well": 1411,
    "tain": 1412,
    "bar": 1413,
    "ci": 1414,
    "ury": 1415,
    "ele": 1416,
    "city": 1417,
    "many": 1418,
    "world": 1419,
    "riv": 1420,
    "arch": 1421,
    "appe": 1422,
    "fi": 1423,
    "mu": 1424,
    "such": 1425,
    "ered": 1426,
    "album": 1427,
    "south": 1428,
    "ho": 1429,
    "before": 1430,
    "aid": 1431,
    "000": 1432,
    "ose": 1433,
    "bel": 1434,
    "ters": 1435,
    "cons": 1436,
    "gener": 1437,
    "ards": 1438,
    "cur": 1439,
    "national": 1440,
    "hist": 1441,
    "series": 1442,
    "mis": 1443,
    "sup": 1444,
    "ning": 1445,
    "loc": 1446,
    "ek": 1447,
    "add": 1448,
    "pop": 1449,
    "16": 1450,
    "sever": 1451,
    "ily": 1452,
    "ific": 1453,
    "ank": 1454,
    "..": 1455,
    "ual": 1456,
    "both": 1457,
    "being": 1458,
    "years": 1459,
    "sim": 1460,
    "these": 1461,
    "urch": 1462,
    "ob": 1463,
    "found": 1464,
    "12": 1465,
    "stud": 1466,
    "az": 1467,
    "ious": 1468,
    "point": 1469,
    "star": 1470,
    "long": 1471,
    "cri": 1472,
    "ca": 1473,
    "will": 1474,
    "div": 1475,
    "15": 1476,
    "ale": 1477,
    "however": 1478,
    "line": 1479,
    "17": 1480,
    "rop": 1481,
    "known": 1482,
    "dire": 1483,
    "down": 1484,
    "ef": 1485,
    "number": 1486,
    "oper": 1487,
    "unt": 1488,
    "cle": 1489,
    "rece": 1490,
    "ven": 1491,
    "ins": 1492,
    "serv": 1493,
    "ird": 1494,
    "ities": 1495,
    "lan": 1496,
    "side": 1497,
    "state": 1498,
    "ub": 1499,
    "let": 1500,
    "mill": 1501,
    "orig": 1502,
    "batt": 1503,
    "ause": 1504,
    "music": 1505,
    "east": 1506,
    "ince": 1507,
    "mem": 1508,
    "row": 1509,
    "mat": 1510,
    "hn": 1511,
    "stor": 1512,
    "ii": 1513,
    "ived": 1514,
    "velop": 1515,
    "early": 1516,
    "ines": 1517,
    "like": 1518,
    "charac": 1519,
    "epis": 1520,
    "brit": 1521,
    "several": 1522,
    "inv": 1523,
    "ern": 1524,
    "jor": 1525,
    "sul": 1526,
    "olog": 1527,
    "descri": 1528,
    "including": 1529,
    "against": 1530,
    "develop": 1531,
    "show": 1532,
    "hy": 1533,
    "origin": 1534,
    "team": 1535,
    "head": 1536,
    "became": 1537,
    "uary": 1538,
    "rol": 1539,
    "feat": 1540,
    "sm": 1541,
    "ode": 1542,
    "cover": 1543,
    "ped": 1544,
    "ident": 1545,
    "ond": 1546,
    "bed": 1547,
    "var": 1548,
    "united": 1549,
    "crit": 1550,
    "lif": 1551,
    "198": 1552,
    "ham": 1553,
    "ise": 1554,
    "ft": 1555,
    "cy": 1556,
    "ai": 1557,
    "mil": 1558,
    "try": 1559,
    "30": 1560,
    "lead": 1561,
    "ms": 1562,
    "ative": 1563,
    "hel": 1564,
    "although": 1565,
    "contin": 1566,
    "leg": 1567,
    "ball": 1568,
    "peri": 1569,
    "mer": 1570,
    "chr": 1571,
    "dif": 1572,
    "john": 1573,
    "care": 1574,
    "suc": 1575,
    "ised": 1576,
    "nam": 1577,
    "century": 1578,
    "met": 1579,
    "dist": 1580,
    "ures": 1581,
    "open": 1582,
    "run": 1583,
    "hou": 1584,
    "bor": 1585,
    "sign": 1586,
    "following": 1587,
    "ib": 1588,
    "eu": 1589,
    "ley": 1590,
    "ting": 1591,
    "vem": 1592,
    "present": 1593,
    "fam": 1594,
    "194": 1595,
    "called": 1596,
    "ared": 1597,
    "gover": 1598,
    "por": 1599,
    "town": 1600,
    "church": 1601,
    "mark": 1602,
    "near": 1603,
    "ments": 1604,
    "along": 1605,
    "ually": 1606,
    "cial": 1607,
    "began": 1608,
    "196": 1609,
    "use": 1610,
    "pers": 1611,
    "jun": 1612,
    "197": 1613,
    "ide": 1614,
    "because": 1615,
    "ross": 1616,
    "remain": 1617,
    "public": 1618,
    "ject": 1619,
    "dam": 1620,
    "pass": 1621,
    "could": 1622,
    "did": 1623,
    "road": 1624,
    "roy": 1625,
    "six": 1626,
    "men": 1627,
    "ended": 1628,
    "dep": 1629,
    "episode": 1630,
    "self": 1631,
    "tre": 1632,
    "dec": 1633,
    "book": 1634,
    "ision": 1635,
    "dom": 1636,
    "val": 1637,
    "ork": 1638,
    "ople": 1639,
    "area": 1640,
    "field": 1641,
    "aking": 1642,
    "until": 1643,
    "said": 1644,
    "ah": 1645,
    "gg": 1646,
    "group": 1647,
    "bre": 1648,
    "prote": 1649,
    "tit": 1650,
    "success": 1651,
    "sk": 1652,
    "13": 1653,
    "american": 1654,
    "states": 1655,
    "vide": 1656,
    "pow": 1657,
    "now": 1658,
    "jan": 1659,
    "less": 1660,
    "design": 1661,
    "grap": 1662,
    "ress": 1663,
    "people": 1664,
    "position": 1665,
    "start": 1666,
    "appear": 1667,
    "gust": 1668,
    "light": 1669,
    "ized": 1670,
    "life": 1671,
    "tal": 1672,
    "ica": 1673,
    "offic": 1674,
    "ital": 1675,
    "water": 1676,
    "you": 1677,
    "return": 1678,
    "14": 1679,
    "plac": 1680,
    "released": 1681,
    "stem": 1682,
    "cour": 1683,
    "since": 1684,
    "xt": 1685,
    "cept": 1686,
    "ange": 1687,
    "british": 1688,
    "50": 1689,
    "di": 1690,
    "cast": 1691,
    "trans": 1692,
    "each": 1693,
    "company": 1694,
    "same": 1695,
    "ash": 1696,
    "ple": 1697,
    "del": 1698,
    "ys": 1699,
    "thern": 1700,
    "bod": 1701,
    "around": 1702,
    "har": 1703,
    "come": 1704,
    "def": 1705,
    "ists": 1706,
    "km": 1707,
    "win": 1708,
    "mag": 1709,
    "lit": 1710,
    "ool": 1711,
    "million": 1712,
    "major": 1713,
    "fect": 1714,
    "formed": 1715,
    "wal": 1716,
    "just": 1717,
    "week": 1718,
    "five": 1719,
    "track": 1720,
    "read": 1721,
    "camp": 1722,
    "ided": 1723,
    "best": 1724,
    "soci": 1725,
    "fur": 1726,
    "pen": 1727,
    "august": 1728,
    "ling": 1729,
    "what": 1730,
    "support": 1731,
    "command": 1732,
    "attack": 1733,
    "school": 1734,
    "govern": 1735,
    "sep": 1736,
    "stand": 1737,
    "small": 1738,
    "character": 1739,
    "final": 1740,
    "ground": 1741,
    "system": 1742,
    "ather": 1743,
    "ore": 1744,
    "ze": 1745,
    "another": 1746,
    "ood": 1747,
    "hum": 1748,
    "river": 1749,
    "class": 1750,
    "rest": 1751,
    "direct": 1752,
    "consid": 1753,
    "mor": 1754,
    "mid": 1755,
    "continu": 1756,
    "gun": 1757,
    "get": 1758,
    "ves": 1759,
    "ons": 1760,
    "even": 1761,
    "stral": 1762,
    "ured": 1763,
    "ner": 1764,
    "ivers": 1765,
    "top": 1766,
    "comple": 1767,
    "great": 1768,
    "septem": 1769,
    "september": 1770,
    "prom": 1771,
    "adv": 1772,
    "gy": 1773,
    "report": 1774,
    "house": 1775,
    "aim": 1776,
    "games": 1777,
    "hal": 1778,
    "ward": 1779,
    "large": 1780,
    "ord": 1781,
    "dy": 1782,
    "requ": 1783,
    "austral": 1784,
    "child": 1785,
    "hav": 1786,
    "la": 1787,
    "order": 1788,
    "lish": 1789,
    "ural": 1790,
    "resul": 1791,
    "leag": 1792,
    "build": 1793,
    "band": 1794,
    "black": 1795,
    "ages": 1796,
    "hur": 1797,
    "ae": 1798,
    "due": 1799,
    "white": 1800,
    "den": 1801,
    "species": 1802,
    "last": 1803,
    "constru": 1804,
    "ically": 1805,
    "contr": 1806,
    "name": 1807,
    "rican": 1808,
    "11": 1809,
    "ru": 1810,
    "sol": 1811,
    "cut": 1812,
    "ium": 1813,
    "list": 1814,
    "aged": 1815,
    "short": 1816,
    "played": 1817,
    "ont": 1818,
    "history": 1819,
    "ism": 1820,
    "bers": 1821,
    "home": 1822,
    "allow": 1823,
    "june": 1824,
    "turn": 1825,
    "tle": 1826,
    "appro": 1827,
    "apr": 1828,
    "won": 1829,
    "giv": 1830,
    "storm": 1831,
    "0s": 1832,
    "organ": 1833,
    "government": 1834,
    "dest": 1835,
    "prov": 1836,
    "review": 1837,
    "ately": 1838,
    "25": 1839,
    "reach": 1840,
    "partic": 1841,
    "hor": 1842,
    "island": 1843,
    "power": 1844,
    "ional": 1845,
    "pat": 1846,
    "ement": 1847,
    "received": 1848,
    "ined": 1849,
    "gl": 1850,
    "christ": 1851,
    "ained": 1852,
    "resp": 1853,
    "club": 1854,
    "stre": 1855,
    "fall": 1856,
    "ron": 1857,
    "took": 1858,
    "ired": 1859,
    "accord": 1860,
    "bus": 1861,
    "place": 1862,
    "colle": 1863,
    "late": 1864,
    "described": 1865,
    "family": 1866,
    "ility": 1867,
    "much": 1868,
    "hand": 1869,
    "cas": 1870,
    "ier": 1871,
    "within": 1872,
    "moun": 1873,
    "named": 1874,
    "incre": 1875,
    "ilt": 1876,
    "march": 1877,
    "god": 1878,
    "death": 1879,
    "fic": 1880,
    "ask": 1881,
    "league": 1882,
    "general": 1883,
    "gin": 1884,
    "octo": 1885,
    "october": 1886,
    "tech": 1887,
    "ats": 1888,
    "fort": 1889,
    "sl": 1890,
    "moved": 1891,
    "wood": 1892,
    "very": 1893,
    "ali": 1894,
    "times": 1895,
    "according": 1896,
    "na": 1897,
    "rote": 1898,
    "ropical": 1899,
    "sed": 1900,
    "ants": 1901,
    "sequ": 1902,
    "third": 1903,
    "ina": 1904,
    "ude": 1905,
    "vo": 1906,
    "pri": 1907,
    "ively": 1908,
    "vious": 1909,
    "wrote": 1910,
    "single": 1911,
    "july": 1912,
    "york": 1913,
    "s.": 1914,
    "story": 1915,
    "gar": 1916,
    "control": 1917,
    "video": 1918,
    "ha": 1919,
    "fle": 1920,
    "person": 1921,
    "ony": 1922,
    "event": 1923,
    "ni": 1924,
    "aft": 1925,
    "differ": 1926,
    "posed": 1927,
    "ians": 1928,
    "som": 1929,
    "univers": 1930,
    "based": 1931,
    "ink": 1932,
    "right": 1933,
    "ships": 1934,
    "far": 1935,
    "april": 1936,
    "tempt": 1937,
    "euro": 1938,
    "ler": 1939,
    "sport": 1940,
    "fri": 1941,
    "...": 1942,
    "belie": 1943,
    "estab": 1944,
    "ery": 1945,
    "sen": 1946,
    "included": 1947,
    "addition": 1948,
    "cus": 1949,
    "german": 1950,
    "195": 1951,
    "division": 1952,
    "real": 1953,
    "built": 1954,
    "foot": 1955,
    "those": 1956,
    "version": 1957,
    "nat": 1958,
    "sent": 1959,
    "tropical": 1960,
    "january": 1961,
    "expl": 1962,
    "aur": 1963,
    "left": 1964,
    "commun": 1965,
    "akes": 1966,
    "ified": 1967,
    "force": 1968,
    "attempt": 1969,
    "sci": 1970,
    "england": 1971,
    "original": 1972,
    "pect": 1973,
    "vol": 1974,
    "period": 1975,
    "claim": 1976,
    "squ": 1977,
    "vill": 1978,
    "rock": 1979,
    "previous": 1980,
    "dece": 1981,
    "fed": 1982,
    "gram": 1983,
    "law": 1984,
    "dan": 1985,
    "itch": 1986,
    "auth": 1987,
    "cup": 1988,
    "ilar": 1989,
    "thing": 1990,
    "issu": 1991,
    "centr": 1992,
    "ness": 1993,
    "fac": 1994,
    "heav": 1995,
    "ops": 1996,
    "make": 1997,
    "flu": 1998,
    "champ": 1999
  },
  "merges": [
    [
      "t",
      "h"
    ],
    [
      "i",
      "n"
    ],
    [
      "th",
      "e"
    ],
    [
      "a",
      "n"
    ],
    [
      "e",
      "r"
    ],
    [
      "o",
      "n"
    ],
    [
      "r",
      "e"
    ],
    [
      "e",
      "d"
    ],
    [
      "a",
      "t"
    ],
    [
      "e",
      "n"
    ],
    [
      "s",
      "t"
    ],
    [
      "o",
      "r"
    ],
    [
      "a",
      "l"
    ],
    [
      "a",
      "r"
    ],
    [
      "an",
      "d"
    ],
    [
      "a",
      "s"
    ],
    [
      "o",
      "f"
    ],
    [
      "i",
      "s"
    ],
    [
      "e",
      "s"
    ],
    [
      "in",
      "g"
    ],
    [
      "i",
      "t"
    ],
    [
      "t",
      "o"
    ],
    [
      "r",
      "o"
    ],
    [
      "i",
      "c"
    ],
    [
      "o",
      "u"
    ],
    [
      "i",
      "on"
    ],
    [
      "l",
      "e"
    ],
    [
      "c",
      "h"
    ],
    [
      "s",
      "e"
    ],
    [
      "a",
      "m"
    ],
    [
      "i",
      "l"
    ],
    [
      "en",
      "t"
    ],
    [
      "a",
      "d"
    ],
    [
      "e",
      "l"
    ],
    [
      "a",
      "c"
    ],
    [
      "o",
      "m"
    ],
    [
      "b",
      "e"
    ],
    [
      "f",
      "or"
    ],
    [
      "d",
      "e"
    ],
    [
      "w",
      "as"
    ],
    [
      "u",
      "r"
    ],
    [
      "l",
      "y"
    ],
    [
      "u",
      "n"
    ],
    [
      "o",
      "l"
    ],
    [
      "w",
      "h"
    ],
    [
      "i",
      "m"
    ],
    [
      "i",
      "v"
    ],
    [
      "i",
      "r"
    ],
    [
      "i",
      "g"
    ],
    [
      "@",
      "-"
    ],
    [
      "@-",
      "@"
    ],
    [
      "o",
      "w"
    ],
    [
      "h",
      "e"
    ],
    [
      "w",
      "i"
    ],
    [
      "t",
      "er"
    ],
    [
      "c",
      "on"
    ],
    [
      "a",
      "y"
    ],
    [
      "c",
      "e"
    ],
    [
      "v",
      "er"
    ],
    [
      "wi",
      "th"
    ],
    [
      "a",
      "g"
    ],
    [
      "at",
      "ion"
    ],
    [
      "u",
      "s"
    ],
    [
      "th",
      "at"
    ],
    [
      "'",
      "s"
    ],
    [
      "b",
      "y"
    ],
    [
      "c",
      "t"
    ],
    [
      "i",
      "d"
    ],
    [
      "o",
      "t"
    ],
    [
      "a",
      "p"
    ],
    [
      "s",
      "u"
    ],
    [
      "c",
      "om"
    ],
    [
      "t",
      "e"
    ],
    [
      "p",
      "l"
    ],
    [
      "t",
      "r"
    ],
    [
      "o",
      "p"
    ],
    [
      "ro",
      "m"
    ],
    [
      "m",
      "o"
    ],
    [
      "a",
      "v"
    ],
    [
      "u",
      "l"
    ],
    [
      "n",
      "e"
    ],
    [
      "a",
      "b"
    ],
    [
      "1",
      "9"
    ],
    [
      "al",
      "l"
    ],
    [
      "s",
      "h"
    ],
    [
      "a",
      "in"
    ],
    [
      "a",
      "re"
    ],
    [
      "p",
      "e"
    ],
    [
      "i",
      "st"
    ],
    [
      "er",
      "s"
    ],
    [
      "u",
      "t"
    ],
    [
      "er",
      "e"
    ],
    [
      "re",
      "s"
    ],
    [
      "0",
      "0"
    ],
    [
      "p",
      "ro"
    ],
    [
      "u",
      "m"
    ],
    [
      "c",
      "l"
    ],
    [
      "e",
      "m"
    ],
    [
      "f",
      "rom"
    ],
    [
      "h",
      "is"
    ],
    [
      "the",
      "r"
    ],
    [
      "e",
      "t"
    ],
    [
      "ou",
      "n"
    ],
    [
      "i",
      "es"
    ],
    [
      "p",
      "o"
    ],
    [
      "ar",
      "t"
    ],
    [
      "i",
      "f"
    ],
    [
      "e",
      "st"
    ],
    [
      "il",
      "l"
    ],
    [
      "l",
      "o"
    ],
    [
      "e",
      "x"
    ],
    [
      "s",
      "o"
    ],
    [
      "m",
      "an"
    ],
    [
      "a",
      "f"
    ],
    [
      "a",
      "k"
    ],
    [
      "w",
      "ere"
    ],
    [
      "r",
      "i"
    ],
    [
      "ig",
      "h"
    ],
    [
      "b",
      "er"
    ],
    [
      "a",
      "st"
    ],
    [
      "at",
      "e"
    ],
    [
      "ar",
      "d"
    ],
    [
      "on",
      "g"
    ],
    [
      "ic",
      "h"
    ],
    [
      "o",
      "d"
    ],
    [
      "an",
      "t"
    ],
    [
      "q",
      "u"
    ],
    [
      "p",
      "er"
    ],
    [
      "is",
      "h"
    ],
    [
      "g",
      "h"
    ],
    [
      "t",
      "w"
    ],
    [
      "it",
      "y"
    ],
    [
      "at",
      "ed"
    ],
    [
      "am",
      "e"
    ],
    [
      "on",
      "e"
    ],
    [
      "a",
      "u"
    ],
    [
      "es",
      "s"
    ],
    [
      "or",
      "t"
    ],
    [
      "ou",
      "t"
    ],
    [
      "e",
      "ar"
    ],
    [
      "iv",
      "e"
    ],
    [
      "c",
      "o"
    ],
    [
      "en",
      "d"
    ],
    [
      "re",
      "d"
    ],
    [
      "ac",
      "k"
    ],
    [
      "i",
      "e"
    ],
    [
      "l",
      "d"
    ],
    [
      "b",
      "r"
    ],
    [
      "h",
      "ad"
    ],
    [
      "f",
      "e"
    ],
    [
      "g",
      "e"
    ],
    [
      "m",
      "ent"
    ],
    [
      "n",
      "ot"
    ],
    [
      "d",
      "er"
    ],
    [
      "u",
      "p"
    ],
    [
      "wh",
      "ich"
    ],
    [
      "b",
      "o"
    ],
    [
      "i",
      "p"
    ],
    [
      "i",
      "an"
    ],
    [
      "b",
      "ut"
    ],
    [
      "h",
      "er"
    ],
    [
      "ou",
      "r"
    ],
    [
      "u",
      "d"
    ],
    [
      "st",
      "r"
    ],
    [
      "ac",
      "t"
    ],
    [
      "w",
      "or"
    ],
    [
      "in",
      "e"
    ],
    [
      "i",
      "al"
    ],
    [
      "s",
      "p"
    ],
    [
      "el",
      "l"
    ],
    [
      "it",
      "s"
    ],
    [
      "d",
      "u"
    ],
    [
      "i",
      "a"
    ],
    [
      "ic",
      "al"
    ],
    [
      "av",
      "e"
    ],
    [
      "b",
      "l"
    ],
    [
      "igh",
      "t"
    ],
    [
      "f",
      "ir"
    ],
    [
      "ar",
      "y"
    ],
    [
      "as",
      "s"
    ],
    [
      "a",
      "ch"
    ],
    [
      "c",
      "or"
    ],
    [
      "th",
      "is"
    ],
    [
      "g",
      "r"
    ],
    [
      "2",
      "00"
    ],
    [
      "a",
      "w"
    ],
    [
      "o",
      "ver"
    ],
    [
      "n",
      "o"
    ],
    [
      "l",
      "and"
    ],
    [
      "s",
      "er"
    ],
    [
      "c",
      "r"
    ],
    [
      "2",
      "0"
    ],
    [
      "the",
      "ir"
    ],
    [
      "ou",
      "s"
    ],
    [
      "fir",
      "st"
    ],
    [
      "t",
      "im"
    ],
    [
      "f",
      "o"
    ],
    [
      "m",
      "ar"
    ],
    [
      "p",
      "r"
    ],
    [
      "ow",
      "n"
    ],
    [
      "o",
      "ther"
    ],
    [
      "s",
      "i"
    ],
    [
      "k",
      "e"
    ],
    [
      "af",
      "ter"
    ],
    [
      "ag",
      "e"
    ],
    [
      "p",
      "ort"
    ],
    [
      "g",
      "u"
    ],
    [
      "m",
      "e"
    ],
    [
      "i",
      "re"
    ],
    [
      "ou",
      "ld"
    ],
    [
      "p",
      "t"
    ],
    [
      "in",
      "d"
    ],
    [
      "the",
      "y"
    ],
    [
      "for",
      "m"
    ],
    [
      "al",
      "so"
    ],
    [
      "v",
      "e"
    ],
    [
      "pl",
      "ay"
    ],
    [
      "it",
      "ion"
    ],
    [
      "s",
      "c"
    ],
    [
      "in",
      "t"
    ],
    [
      "com",
      "m"
    ],
    [
      "at",
      "er"
    ],
    [
      "com",
      "p"
    ],
    [
      "ne",
      "w"
    ],
    [
      "p",
      "art"
    ],
    [
      "ct",
      "ion"
    ],
    [
      "ig",
      "n"
    ],
    [
      "oun",
      "d"
    ],
    [
      "h",
      "as"
    ],
    [
      "p",
      "res"
    ],
    [
      "c",
      "ent"
    ],
    [
      "o",
      "c"
    ],
    [
      "at",
      "t"
    ],
    [
      "d",
      "es"
    ],
    [
      "u",
      "re"
    ],
    [
      "l",
      "i"
    ],
    [
      "tw",
      "o"
    ],
    [
      "e",
      "v"
    ],
    [
      "wh",
      "o"
    ],
    [
      "h",
      "ave"
    ],
    [
      "p",
      "re"
    ],
    [
      "w",
      "e"
    ],
    [
      "c",
      "re"
    ],
    [
      "1",
      "8"
    ],
    [
      "l",
      "ow"
    ],
    [
      "po",
      "s"
    ],
    [
      "of",
      "f"
    ],
    [
      "d",
      "is"
    ],
    [
      "al",
      "ly"
    ],
    [
      "o",
      "k"
    ],
    [
      "en",
      "ce"
    ],
    [
      "be",
      "en"
    ],
    [
      "n",
      "or"
    ],
    [
      "om",
      "e"
    ],
    [
      "ro",
      "u"
    ],
    [
      "s",
      "he"
    ],
    [
      "@",
      "."
    ],
    [
      "@.",
      "@"
    ],
    [
      "ou",
      "gh"
    ],
    [
      "i",
      "le"
    ],
    [
      "y",
      "ear"
    ],
    [
      "p",
      "h"
    ],
    [
      "ur",
      "ing"
    ],
    [
      "it",
      "e"
    ],
    [
      "c",
      "ol"
    ],
    [
      "an",
      "g"
    ],
    [
      "re",
      "e"
    ],
    [
      "con",
      "t"
    ],
    [
      "v",
      "i"
    ],
    [
      "ad",
      "e"
    ],
    [
      "or",
      "y"
    ],
    [
      "in",
      "ter"
    ],
    [
      "j",
      "o"
    ],
    [
      "c",
      "an"
    ],
    [
      "20",
      "1"
    ],
    [
      "re",
      "n"
    ],
    [
      "f",
      "l"
    ],
    [
      "ol",
      "d"
    ],
    [
      "f",
      "in"
    ],
    [
      "cor",
      "d"
    ],
    [
      "c",
      "k"
    ],
    [
      "d",
      "r"
    ],
    [
      "el",
      "y"
    ],
    [
      "in",
      "cl"
    ],
    [
      "an",
      "ce"
    ],
    [
      "v",
      "ed"
    ],
    [
      "ac",
      "e"
    ],
    [
      "ation",
      "s"
    ],
    [
      "m",
      "on"
    ],
    [
      "sh",
      "ip"
    ],
    [
      "s",
      "pe"
    ],
    [
      "ic",
      "e"
    ],
    [
      "a",
      "ir"
    ],
    [
      "ab",
      "le"
    ],
    [
      "@",
      ","
    ],
    [
      "@,",
      "@"
    ],
    [
      "ur",
      "n"
    ],
    [
      "f",
      "er"
    ],
    [
      "en",
      "g"
    ],
    [
      "d",
      "uring"
    ],
    [
      "g",
      "ro"
    ],
    [
      "tim",
      "e"
    ],
    [
      "mo",
      "st"
    ],
    [
      "p",
      "ar"
    ],
    [
      "wh",
      "en"
    ],
    [
      "an",
      "s"
    ],
    [
      "t",
      "ed"
    ],
    [
      "s",
      "ou"
    ],
    [
      "i",
      "z"
    ],
    [
      "f",
      "r"
    ],
    [
      "t",
      "y"
    ],
    [
      "v",
      "el"
    ],
    [
      "g",
      "o"
    ],
    [
      "m",
      "in"
    ],
    [
      "mo",
      "re"
    ],
    [
      "t",
      "s"
    ],
    [
      "g",
      "en"
    ],
    [
      "s",
      "ong"
    ],
    [
      "te",
      "m"
    ],
    [
      "un",
      "d"
    ],
    [
      "s",
      "ion"
    ],
    [
      "e",
      "ver"
    ],
    [
      "c",
      "ed"
    ],
    [
      "wor",
      "k"
    ],
    [
      "a",
      "il"
    ],
    [
      "rou",
      "gh"
    ],
    [
      "in",
      "to"
    ],
    [
      "c",
      "oun"
    ],
    [
      "e",
      "p"
    ],
    [
      "a",
      "th"
    ],
    [
      "fo",
      "re"
    ],
    [
      "r",
      "it"
    ],
    [
      "c",
      "es"
    ],
    [
      "re",
      "g"
    ],
    [
      "ic",
      "k"
    ],
    [
      "w",
      "ay"
    ],
    [
      "i",
      "ed"
    ],
    [
      "ch",
      "ar"
    ],
    [
      "m",
      "ain"
    ],
    [
      "be",
      "c"
    ],
    [
      "con",
      "d"
    ],
    [
      "t",
      "en"
    ],
    [
      "u",
      "e"
    ],
    [
      "w",
      "ould"
    ],
    [
      "as",
      "on"
    ],
    [
      "am",
      "p"
    ],
    [
      "s",
      "y"
    ],
    [
      "th",
      "ough"
    ],
    [
      "us",
      "ed"
    ],
    [
      "h",
      "im"
    ],
    [
      "c",
      "ar"
    ],
    [
      "an",
      "n"
    ],
    [
      "it",
      "ed"
    ],
    [
      "ct",
      "ed"
    ],
    [
      "d",
      "ay"
    ],
    [
      "b",
      "u"
    ],
    [
      "m",
      "a"
    ],
    [
      "ing",
      "s"
    ],
    [
      "wh",
      "ile"
    ],
    [
      "as",
      "ed"
    ],
    [
      "un",
      "der"
    ],
    [
      "g",
      "ame"
    ],
    [
      "ent",
      "s"
    ],
    [
      "e",
      "en"
    ],
    [
      "w",
      "ar"
    ],
    [
      "incl",
      "ud"
    ],
    [
      "p",
      "u"
    ],
    [
      "s",
      "ome"
    ],
    [
      "at",
      "es"
    ],
    [
      "on",
      "ly"
    ],
    [
      "f",
      "il"
    ],
    [
      "an",
      "y"
    ],
    [
      "re",
      "l"
    ],
    [
      "m",
      "ay"
    ],
    [
      "s",
      "ing"
    ],
    [
      "s",
      "on"
    ],
    [
      "ic",
      "an"
    ],
    [
      "m",
      "ed"
    ],
    [
      "m",
      "i"
    ],
    [
      "ak",
      "e"
    ],
    [
      "k",
      "n"
    ],
    [
      "g",
      "an"
    ],
    [
      "as",
      "e"
    ],
    [
      "c",
      "ess"
    ],
    [
      "j",
      "e"
    ],
    [
      "ion",
      "s"
    ],
    [
      "il",
      "d"
    ],
    [
      "f",
      "ol"
    ],
    [
      "h",
      "ow"
    ],
    [
      "o",
      "s"
    ],
    [
      "j",
      "u"
    ],
    [
      "the",
      "re"
    ],
    [
      "l",
      "es"
    ],
    [
      "b",
      "le"
    ],
    [
      "m",
      "us"
    ],
    [
      "al",
      "s"
    ],
    [
      "re",
      "cord"
    ],
    [
      "l",
      "ar"
    ],
    [
      "d",
      "o"
    ],
    [
      "r",
      "a"
    ],
    [
      "the",
      "m"
    ],
    [
      "ic",
      "t"
    ],
    [
      "th",
      "ree"
    ],
    [
      "ab",
      "out"
    ],
    [
      "l",
      "ater"
    ],
    [
      "re",
      "t"
    ],
    [
      "v",
      "is"
    ],
    [
      "h",
      "igh"
    ],
    [
      "en",
      "s"
    ],
    [
      "s",
      "s"
    ],
    [
      "to",
      "w"
    ],
    [
      "pu",
      "bl"
    ],
    [
      "se",
      "l"
    ],
    [
      "se",
      "ason"
    ],
    [
      "or",
      "s"
    ],
    [
      "th",
      "rough"
    ],
    [
      "th",
      "an"
    ],
    [
      "c",
      "ap"
    ],
    [
      "pro",
      "du"
    ],
    [
      "m",
      "y"
    ],
    [
      "el",
      "d"
    ],
    [
      "f",
      "ul"
    ],
    [
      "v",
      "ie"
    ],
    [
      "tw",
      "een"
    ],
    [
      "19",
      "9"
    ],
    [
      "be",
      "tween"
    ],
    [
      "ag",
      "ain"
    ],
    [
      "w",
      "est"
    ],
    [
      "fol",
      "low"
    ],
    [
      "str",
      "u"
    ],
    [
      "o",
      "g"
    ],
    [
      "n",
      "um"
    ],
    [
      "spe",
      "c"
    ],
    [
      "g",
      "er"
    ],
    [
      "am",
      "er"
    ],
    [
      "ation",
      "al"
    ],
    [
      "w",
      "rit"
    ],
    [
      "fil",
      "m"
    ],
    [
      "wh",
      "ere"
    ],
    [
      "b",
      "ro"
    ],
    [
      "k",
      "ing"
    ],
    [
      "ul",
      "ar"
    ],
    [
      "c",
      "all"
    ],
    [
      "re",
      "le"
    ],
    [
      "s",
      "ch"
    ],
    [
      "su",
      "b"
    ],
    [
      "l",
      "ed"
    ],
    [
      "at",
      "ing"
    ],
    [
      "st",
      "e"
    ],
    [
      "t",
      "on"
    ],
    [
      "p",
      "ol"
    ],
    [
      "ic",
      "s"
    ],
    [
      "g",
      "re"
    ],
    [
      "c",
      "er"
    ],
    [
      "se",
      "cond"
    ],
    [
      "am",
      "es"
    ],
    [
      "se",
      "t"
    ],
    [
      "vie",
      "w"
    ],
    [
      "1",
      "0"
    ],
    [
      "nor",
      "th"
    ],
    [
      "ul",
      "t"
    ],
    [
      "i",
      "o"
    ],
    [
      "al",
      "b"
    ],
    [
      "the",
      "n"
    ],
    [
      "r",
      "y"
    ],
    [
      "s",
      "ur"
    ],
    [
      "b",
      "ack"
    ],
    [
      "m",
      "ade"
    ],
    [
      "ish",
      "ed"
    ],
    [
      "f",
      "our"
    ],
    [
      "w",
      "ell"
    ],
    [
      "t",
      "ain"
    ],
    [
      "b",
      "ar"
    ],
    [
      "c",
      "i"
    ],
    [
      "ur",
      "y"
    ],
    [
      "e",
      "le"
    ],
    [
      "c",
      "ity"
    ],
    [
      "man",
      "y"
    ],
    [
      "wor",
      "ld"
    ],
    [
      "r",
      "iv"
    ],
    [
      "ar",
      "ch"
    ],
    [
      "ap",
      "pe"
    ],
    [
      "f",
      "i"
    ],
    [
      "m",
      "u"
    ],
    [
      "su",
      "ch"
    ],
    [
      "er",
      "ed"
    ],
    [
      "alb",
      "um"
    ],
    [
      "sou",
      "th"
    ],
    [
      "h",
      "o"
    ],
    [
      "be",
      "fore"
    ],
    [
      "a",
      "id"
    ],
    [
      "00",
      "0"
    ],
    [
      "o",
      "se"
    ],
    [
      "b",
      "el"
    ],
    [
      "ter",
      "s"
    ],
    [
      "con",
      "s"
    ],
    [
      "gen",
      "er"
    ],
    [
      "ard",
      "s"
    ],
    [
      "c",
      "ur"
    ],
    [
      "n",
      "ational"
    ],
    [
      "h",
      "ist"
    ],
    [
      "ser",
      "ies"
    ],
    [
      "m",
      "is"
    ],
    [
      "su",
      "p"
    ],
    [
      "n",
      "ing"
    ],
    [
      "lo",
      "c"
    ],
    [
      "e",
      "k"
    ],
    [
      "ad",
      "d"
    ],
    [
      "p",
      "op"
    ],
    [
      "1",
      "6"
    ],
    [
      "se",
      "ver"
    ],
    [
      "il",
      "y"
    ],
    [
      "if",
      "ic"
    ],
    [
      "an",
      "k"
    ],
    [
      ".",
      "."
    ],
    [
      "u",
      "al"
    ],
    [
      "bo",
      "th"
    ],
    [
      "be",
      "ing"
    ],
    [
      "year",
      "s"
    ],
    [
      "s",
      "im"
    ],
    [
      "the",
      "se"
    ],
    [
      "ur",
      "ch"
    ],
    [
      "o",
      "b"
    ],
    [
      "f",
      "ound"
    ],
    [
      "1",
      "2"
    ],
    [
      "st",
      "ud"
    ],
    [
      "a",
      "z"
    ],
    [
      "i",
      "ous"
    ],
    [
      "po",
      "int"
    ],
    [
      "st",
      "ar"
    ],
    [
      "l",
      "ong"
    ],
    [
      "c",
      "ri"
    ],
    [
      "c",
      "a"
    ],
    [
      "w",
      "ill"
    ],
    [
      "d",
      "iv"
    ],
    [
      "1",
      "5"
    ],
    [
      "al",
      "e"
    ],
    [
      "how",
      "ever"
    ],
    [
      "l",
      "ine"
    ],
    [
      "1",
      "7"
    ],
    [
      "ro",
      "p"
    ],
    [
      "kn",
      "own"
    ],
    [
      "d",
      "ire"
    ],
    [
      "d",
      "own"
    ],
    [
      "e",
      "f"
    ],
    [
      "num",
      "ber"
    ],
    [
      "op",
      "er"
    ],
    [
      "un",
      "t"
    ],
    [
      "c",
      "le"
    ],
    [
      "re",
      "ce"
    ],
    [
      "v",
      "en"
    ],
    [
      "in",
      "s"
    ],
    [
      "ser",
      "v"
    ],
    [
      "ir",
      "d"
    ],
    [
      "it",
      "ies"
    ],
    [
      "l",
      "an"
    ],
    [
      "si",
      "de"
    ],
    [
      "st",
      "ate"
    ],
    [
      "u",
      "b"
    ],
    [
      "le",
      "t"
    ],
    [
      "m",
      "ill"
    ],
    [
      "or",
      "ig"
    ],
    [
      "b",
      "att"
    ],
    [
      "au",
      "se"
    ],
    [
      "mus",
      "ic"
    ],
    [
      "e",
      "ast"
    ],
    [
      "in",
      "ce"
    ],
    [
      "m",
      "em"
    ],
    [
      "ro",
      "w"
    ],
    [
      "m",
      "at"
    ],
    [
      "h",
      "n"
    ],
    [
      "st",
      "or"
    ],
    [
      "i",
      "i"
    ],
    [
      "iv",
      "ed"
    ],
    [
      "vel",
      "op"
    ],
    [
      "ear",
      "ly"
    ],
    [
      "in",
      "es"
    ],
    [
      "li",
      "ke"
    ],
    [
      "char",
      "ac"
    ],
    [
      "ep",
      "is"
    ],
    [
      "br",
      "it"
    ],
    [
      "sever",
      "al"
    ],
    [
      "in",
      "v"
    ],
    [
      "er",
      "n"
    ],
    [
      "j",
      "or"
    ],
    [
      "su",
      "l"
    ],
    [
      "ol",
      "og"
    ],
    [
      "des",
      "cri"
    ],
    [
      "includ",
      "ing"
    ],
    [
      "again",
      "st"
    ],
    [
      "de",
      "velop"
    ],
    [
      "sh",
      "ow"
    ],
    [
      "h",
      "y"
    ],
    [
      "orig",
      "in"
    ],
    [
      "te",
      "am"
    ],
    [
      "he",
      "ad"
    ],
    [
      "bec",
      "ame"
    ],
    [
      "u",
      "ary"
    ],
    [
      "ro",
      "l"
    ],
    [
      "fe",
      "at"
    ],
    [
      "s",
      "m"
    ],
    [
      "o",
      "de"
    ],
    [
      "co",
      "ver"
    ],
    [
      "p",
      "ed"
    ],
    [
      "id",
      "ent"
    ],
    [
      "on",
      "d"
    ],
    [
      "b",
      "ed"
    ],
    [
      "v",
      "ar"
    ],
    [
      "un",
      "ited"
    ],
    [
      "cr",
      "it"
    ],
    [
      "l",
      "if"
    ],
    [
      "19",
      "8"
    ],
    [
      "h",
      "am"
    ],
    [
      "is",
      "e"
    ],
    [
      "f",
      "t"
    ],
    [
      "c",
      "y"
    ],
    [
      "a",
      "i"
    ],
    [
      "m",
      "il"
    ],
    [
      "tr",
      "y"
    ],
    [
      "3",
      "0"
    ],
    [
      "le",
      "ad"
    ],
    [
      "m",
      "s"
    ],
    [
      "at",
      "ive"
    ],
    [
      "h",
      "el"
    ],
    [
      "al",
      "though"
    ],
    [
      "cont",
      "in"
    ],
    [
      "le",
      "g"
    ],
    [
      "b",
      "all"
    ],
    [
      "per",
      "i"
    ],
    [
      "m",
      "er"
    ],
    [
      "ch",
      "r"
    ],
    [
      "d",
      "if"
    ],
    [
      "jo",
      "hn"
    ],
    [
      "c",
      "are"
    ],
    [
      "su",
      "c"
    ],
    [
      "is",
      "ed"
    ],
    [
      "n",
      "am"
    ],
    [
      "cent",
      "ury"
    ],
    [
      "m",
      "et"
    ],
    [
      "d",
      "ist"
    ],
    [
      "u",
      "res"
    ],
    [
      "op",
      "en"
    ],
    [
      "r",
      "un"
    ],
    [
      "h",
      "ou"
    ],
    [
      "b",
      "or"
    ],
    [
      "s",
      "ign"
    ],
    [
      "follow",
      "ing"
    ],
    [
      "i",
      "b"
    ],
    [
      "e",
      "u"
    ],
    [
      "le",
      "y"
    ],
    [
      "t",
      "ing"
    ],
    [
      "v",
      "em"
    ],
    [
      "pres",
      "ent"
    ],
    [
      "f",
      "am"
    ],
    [
      "19",
      "4"
    ],
    [
      "call",
      "ed"
    ],
    [
      "are",
      "d"
    ],
    [
      "g",
      "over"
    ],
    [
      "p",
      "or"
    ],
    [
      "tow",
      "n"
    ],
    [
      "ch",
      "urch"
    ],
    [
      "mar",
      "k"
    ],
    [
      "ne",
      "ar"
    ],
    [
      "ment",
      "s"
    ],
    [
      "al",
      "ong"
    ],
    [
      "u",
      "ally"
    ],
    [
      "c",
      "ial"
    ],
    [
      "be",
      "gan"
    ],
    [
      "19",
      "6"
    ],
    [
      "u",
      "se"
    ],
    [
      "p",
      "ers"
    ],
    [
      "j",
      "un"
    ],
    [
      "19",
      "7"
    ],
    [
      "i",
      "de"
    ],
    [
      "bec",
      "ause"
    ],
    [
      "ro",
      "ss"
    ],
    [
      "re",
      "main"
    ],
    [
      "publ",
      "ic"
    ],
    [
      "je",
      "ct"
    ],
    [
      "d",
      "am"
    ],
    [
      "p",
      "ass"
    ],
    [
      "c",
      "ould"
    ],
    [
      "d",
      "id"
    ],
    [
      "ro",
      "ad"
    ],
    [
      "ro",
      "y"
    ],
    [
      "si",
      "x"
    ],
    [
      "m",
      "en"
    ],
    [
      "end",
      "ed"
    ],
    [
      "de",
      "p"
    ],
    [
      "epis",
      "ode"
    ],
    [
      "sel",
      "f"
    ],
    [
      "t",
      "re"
    ],
    [
      "de",
      "c"
    ],
    [
      "bo",
      "ok"
    ],
    [
      "is",
      "ion"
    ],
    [
      "d",
      "om"
    ],
    [
      "v",
      "al"
    ],
    [
      "or",
      "k"
    ],
    [
      "op",
      "le"
    ],
    [
      "are",
      "a"
    ],
    [
      "fi",
      "eld"
    ],
    [
      "ak",
      "ing"
    ],
    [
      "unt",
      "il"
    ],
    [
      "s",
      "aid"
    ],
    [
      "a",
      "h"
    ],
    [
      "g",
      "g"
    ],
    [
      "gro",
      "up"
    ],
    [
      "b",
      "re"
    ],
    [
      "pro",
      "te"
    ],
    [
      "t",
      "it"
    ],
    [
      "suc",
      "cess"
    ],
    [
      "s",
      "k"
    ],
    [
      "1",
      "3"
    ],
    [
      "amer",
      "ican"
    ],
    [
      "st",
      "ates"
    ],
    [
      "vi",
      "de"
    ],
    [
      "p",
      "ow"
    ],
    [
      "n",
      "ow"
    ],
    [
      "j",
      "an"
    ],
    [
      "l",
      "ess"
    ],
    [
      "des",
      "ign"
    ],
    [
      "gr",
      "ap"
    ],
    [
      "res",
      "s"
    ],
    [
      "pe",
      "ople"
    ],
    [
      "pos",
      "ition"
    ],
    [
      "st",
      "art"
    ],
    [
      "appe",
      "ar"
    ],
    [
      "gu",
      "st"
    ],
    [
      "l",
      "ight"
    ],
    [
      "iz",
      "ed"
    ],
    [
      "lif",
      "e"
    ],
    [
      "t",
      "al"
    ],
    [
      "ic",
      "a"
    ],
    [
      "off",
      "ic"
    ],
    [
      "it",
      "al"
    ],
    [
      "w",
      "ater"
    ],
    [
      "y",
      "ou"
    ],
    [
      "ret",
      "urn"
    ],
    [
      "1",
      "4"
    ],
    [
      "pl",
      "ac"
    ],
    [
      "rele",
      "ased"
    ],
    [
      "st",
      "em"
    ],
    [
      "c",
      "our"
    ],
    [
      "s",
      "ince"
    ],
    [
      "x",
      "t"
    ],
    [
      "ce",
      "pt"
    ],
    [
      "an",
      "ge"
    ],
    [
      "brit",
      "ish"
    ],
    [
      "5",
      "0"
    ],
    [
      "d",
      "i"
    ],
    [
      "c",
      "ast"
    ],
    [
      "tr",
      "ans"
    ],
    [
      "e",
      "ach"
    ],
    [
      "comp",
      "any"
    ],
    [
      "s",
      "ame"
    ],
    [
      "as",
      "h"
    ],
    [
      "p",
      "le"
    ],
    [
      "d",
      "el"
    ],
    [
      "y",
      "s"
    ],
    [
      "ther",
      "n"
    ],
    [
      "b",
      "od"
    ],
    [
      "ar",
      "ound"
    ],
    [
      "h",
      "ar"
    ],
    [
      "com",
      "e"
    ],
    [
      "de",
      "f"
    ],
    [
      "ist",
      "s"
    ],
    [
      "k",
      "m"
    ],
    [
      "w",
      "in"
    ],
    [
      "m",
      "ag"
    ],
    [
      "l",
      "it"
    ],
    [
      "o",
      "ol"
    ],
    [
      "mill",
      "ion"
    ],
    [
      "ma",
      "jor"
    ],
    [
      "fe",
      "ct"
    ],
    [
      "form",
      "ed"
    ],
    [
      "w",
      "al"
    ],
    [
      "ju",
      "st"
    ],
    [
      "we",
      "ek"
    ],
    [
      "f",
      "ive"
    ],
    [
      "tr",
      "ack"
    ],
    [
      "re",
      "ad"
    ],
    [
      "c",
      "amp"
    ],
    [
      "id",
      "ed"
    ],
    [
      "be",
      "st"
    ],
    [
      "so",
      "ci"
    ],
    [
      "f",
      "ur"
    ],
    [
      "p",
      "en"
    ],
    [
      "au",
      "gust"
    ],
    [
      "l",
      "ing"
    ],
    [
      "wh",
      "at"
    ],
    [
      "sup",
      "port"
    ],
    [
      "comm",
      "and"
    ],
    [
      "att",
      "ack"
    ],
    [
      "sch",
      "ool"
    ],
    [
      "gover",
      "n"
    ],
    [
      "se",
      "p"
    ],
    [
      "st",
      "and"
    ],
    [
      "sm",
      "all"
    ],
    [
      "charac",
      "ter"
    ],
    [
      "fin",
      "al"
    ],
    [
      "gro",
      "und"
    ],
    [
      "sy",
      "stem"
    ],
    [
      "a",
      "ther"
    ],
    [
      "o",
      "re"
    ],
    [
      "z",
      "e"
    ],
    [
      "an",
      "other"
    ],
    [
      "o",
      "od"
    ],
    [
      "h",
      "um"
    ],
    [
      "riv",
      "er"
    ],
    [
      "cl",
      "ass"
    ],
    [
      "re",
      "st"
    ],
    [
      "dire",
      "ct"
    ],
    [
      "cons",
      "id"
    ],
    [
      "m",
      "or"
    ],
    [
      "m",
      "id"
    ],
    [
      "contin",
      "u"
    ],
    [
      "g",
      "un"
    ],
    [
      "g",
      "et"
    ],
    [
      "v",
      "es"
    ],
    [
      "on",
      "s"
    ],
    [
      "ev",
      "en"
    ],
    [
      "str",
      "al"
    ],
    [
      "u",
      "red"
    ],
    [
      "n",
      "er"
    ],
    [
      "iv",
      "ers"
    ],
    [
      "to",
      "p"
    ],
    [
      "comp",
      "le"
    ],
    [
      "gre",
      "at"
    ],
    [
      "sep",
      "tem"
    ],
    [
      "septem",
      "ber"
    ],
    [
      "p",
      "rom"
    ],
    [
      "ad",
      "v"
    ],
    [
      "g",
      "y"
    ],
    [
      "re",
      "port"
    ],
    [
      "hou",
      "se"
    ],
    [
      "a",
      "im"
    ],
    [
      "g",
      "ames"
    ],
    [
      "h",
      "al"
    ],
    [
      "w",
      "ard"
    ],
    [
      "lar",
      "ge"
    ],
    [
      "or",
      "d"
    ],
    [
      "d",
      "y"
    ],
    [
      "re",
      "qu"
    ],
    [
      "au",
      "stral"
    ],
    [
      "ch",
      "ild"
    ],
    [
      "h",
      "av"
    ],
    [
      "l",
      "a"
    ],
    [
      "or",
      "der"
    ],
    [
      "l",
      "ish"
    ],
    [
      "ur",
      "al"
    ],
    [
      "re",
      "sul"
    ],
    [
      "le",
      "ag"
    ],
    [
      "bu",
      "ild"
    ],
    [
      "b",
      "and"
    ],
    [
      "bl",
      "ack"
    ],
    [
      "ag",
      "es"
    ],
    [
      "h",
      "ur"
    ],
    [
      "a",
      "e"
    ],
    [
      "du",
      "e"
    ],
    [
      "wh",
      "ite"
    ],
    [
      "d",
      "en"
    ],
    [
      "spec",
      "ies"
    ],
    [
      "l",
      "ast"
    ],
    [
      "con",
      "stru"
    ],
    [
      "ical",
      "ly"
    ],
    [
      "con",
      "tr"
    ],
    [
      "n",
      "ame"
    ],
    [
      "r",
      "ican"
    ],
    [
      "1",
      "1"
    ],
    [
      "r",
      "u"
    ],
    [
      "s",
      "ol"
    ],
    [
      "c",
      "ut"
    ],
    [
      "i",
      "um"
    ],
    [
      "l",
      "ist"
    ],
    [
      "ag",
      "ed"
    ],
    [
      "sh",
      "ort"
    ],
    [
      "play",
      "ed"
    ],
    [
      "on",
      "t"
    ],
    [
      "hist",
      "ory"
    ],
    [
      "is",
      "m"
    ],
    [
      "b",
      "ers"
    ],
    [
      "h",
      "ome"
    ],
    [
      "all",
      "ow"
    ],
    [
      "jun",
      "e"
    ],
    [
      "t",
      "urn"
    ],
    [
      "t",
      "le"
    ],
    [
      "ap",
      "pro"
    ],
    [
      "ap",
      "r"
    ],
    [
      "w",
      "on"
    ],
    [
      "g",
      "iv"
    ],
    [
      "stor",
      "m"
    ],
    [
      "0",
      "s"
    ],
    [
      "or",
      "gan"
    ],
    [
      "govern",
      "ment"
    ],
    [
      "de",
      "st"
    ],
    [
      "pro",
      "v"
    ],
    [
      "re",
      "view"
    ],
    [
      "at",
      "ely"
    ],
    [
      "2",
      "5"
    ],
    [
      "re",
      "ach"
    ],
    [
      "part",
      "ic"
    ],
    [
      "h",
      "or"
    ],
    [
      "is",
      "land"
    ],
    [
      "pow",
      "er"
    ],
    [
      "ion",
      "al"
    ],
    [
      "p",
      "at"
    ],
    [
      "em",
      "ent"
    ],
    [
      "rece",
      "ived"
    ],
    [
      "in",
      "ed"
    ],
    [
      "g",
      "l"
    ],
    [
      "chr",
      "ist"
    ],
    [
      "ain",
      "ed"
    ],
    [
      "res",
      "p"
    ],
    [
      "cl",
      "ub"
    ],
    [
      "st",
      "re"
    ],
    [
      "f",
      "all"
    ],
    [
      "r",
      "on"
    ],
    [
      "to",
      "ok"
    ],
    [
      "i",
      "red"
    ],
    [
      "ac",
      "cord"
    ],
    [
      "b",
      "us"
    ],
    [
      "pl",
      "ace"
    ],
    [
      "col",
      "le"
    ],
    [
      "l",
      "ate"
    ],
    [
      "descri",
      "bed"
    ],
    [
      "fam",
      "ily"
    ],
    [
      "il",
      "ity"
    ],
    [
      "mu",
      "ch"
    ],
    [
      "h",
      "and"
    ],
    [
      "c",
      "as"
    ],
    [
      "i",
      "er"
    ],
    [
      "with",
      "in"
    ],
    [
      "m",
      "oun"
    ],
    [
      "nam",
      "ed"
    ],
    [
      "in",
      "cre"
    ],
    [
      "il",
      "t"
    ],
    [
      "mar",
      "ch"
    ],
    [
      "g",
      "od"
    ],
    [
      "de",
      "ath"
    ],
    [
      "f",
      "ic"
    ],
    [
      "as",
      "k"
    ],
    [
      "leag",
      "ue"
    ],
    [
      "gener",
      "al"
    ],
    [
      "g",
      "in"
    ],
    [
      "oc",
      "to"
    ],
    [
      "octo",
      "ber"
    ],
    [
      "te",
      "ch"
    ],
    [
      "at",
      "s"
    ],
    [
      "for",
      "t"
    ],
    [
      "s",
      "l"
    ],
    [
      "mo",
      "ved"
    ],
    [
      "w",
      "ood"
    ],
    [
      "ver",
      "y"
    ],
    [
      "al",
      "i"
    ],
    [
      "tim",
      "es"
    ],
    [
      "accord",
      "ing"
    ],
    [
      "n",
      "a"
    ],
    [
      "ro",
      "te"
    ],
    [
      "rop",
      "ical"
    ],
    [
      "s",
      "ed"
    ],
    [
      "ant",
      "s"
    ],
    [
      "se",
      "qu"
    ],
    [
      "th",
      "ird"
    ],
    [
      "in",
      "a"
    ],
    [
      "u",
      "de"
    ],
    [
      "v",
      "o"
    ],
    [
      "p",
      "ri"
    ],
    [
      "iv",
      "ely"
    ],
    [
      "vi",
      "ous"
    ],
    [
      "w",
      "rote"
    ],
    [
      "sing",
      "le"
    ],
    [
      "ju",
      "ly"
    ],
    [
      "y",
      "ork"
    ],
    [
      "s",
      "."
    ],
    [
      "st",
      "ory"
    ],
    [
      "g",
      "ar"
    ],
    [
      "cont",
      "rol"
    ],
    [
      "vide",
      "o"
    ],
    [
      "h",
      "a"
    ],
    [
      "f",
      "le"
    ],
    [
      "pers",
      "on"
    ],
    [
      "on",
      "y"
    ],
    [
      "ev",
      "ent"
    ],
    [
      "n",
      "i"
    ],
    [
      "af",
      "t"
    ],
    [
      "dif",
      "fer"
    ],
    [
      "pos",
      "ed"
    ],
    [
      "ian",
      "s"
    ],
    [
      "s",
      "om"
    ],
    [
      "un",
      "ivers"
    ],
    [
      "b",
      "ased"
    ],
    [
      "in",
      "k"
    ],
    [
      "r",
      "ight"
    ],
    [
      "ship",
      "s"
    ],
    [
      "f",
      "ar"
    ],
    [
      "apr",
      "il"
    ],
    [
      "tem",
      "pt"
    ],
    [
      "eu",
      "ro"
    ],
    [
      "l",
      "er"
    ],
    [
      "sp",
      "ort"
    ],
    [
      "f",
      "ri"
    ],
    [
      "..",
      "."
    ],
    [
      "bel",
      "ie"
    ],
    [
      "est",
      "ab"
    ],
    [
      "er",
      "y"
    ],
    [
      "s",
      "en"
    ],
    [
      "includ",
      "ed"
    ],
    [
      "add",
      "ition"
    ],
    [
      "c",
      "us"
    ],
    [
      "ger",
      "man"
    ],
    [
      "19",
      "5"
    ],
    [
      "div",
      "ision"
    ],
    [
      "re",
      "al"
    ],
    [
      "bu",
      "ilt"
    ],
    [
      "fo",
      "ot"
    ],
    [
      "th",
      "ose"
    ],
    [
      "ver",
      "sion"
    ],
    [
      "n",
      "at"
    ],
    [
      "s",
      "ent"
    ],
    [
      "t",
      "ropical"
    ],
    [
      "jan",
      "uary"
    ],
    [
      "ex",
      "pl"
    ],
    [
      "a",
      "ur"
    ],
    [
      "le",
      "ft"
    ],
    [
      "comm",
      "un"
    ],
    [
      "ak",
      "es"
    ],
    [
      "if",
      "ied"
    ],
    [
      "for",
      "ce"
    ],
    [
      "at",
      "tempt"
    ],
    [
      "sc",
      "i"
    ],
    [
      "eng",
      "land"
    ],
    [
      "origin",
      "al"
    ],
    [
      "pe",
      "ct"
    ],
    [
      "v",
      "ol"
    ],
    [
      "peri",
      "od"
    ],
    [
      "cl",
      "aim"
    ],
    [
      "s",
      "qu"
    ],
    [
      "v",
      "ill"
    ],
    [
      "ro",
      "ck"
    ],
    [
      "pre",
      "vious"
    ],
    [
      "de",
      "ce"
    ],
    [
      "f",
      "ed"
    ],
    [
      "gr",
      "am"
    ],
    [
      "l",
      "aw"
    ],
    [
      "d",
      "an"
    ],
    [
      "it",
      "ch"
    ],
    [
      "au",
      "th"
    ],
    [
      "c",
      "up"
    ],
    [
      "il",
      "ar"
    ],
    [
      "th",
      "ing"
    ],
    [
      "is",
      "su"
    ],
    [
      "cent",
      "r"
    ],
    [
      "n",
      "ess"
    ],
    [
      "f",
      "ac"
    ],
    [
      "he",
      "av"
    ],
    [
      "op",
      "s"
    ],
    [
      "m",
      "ake"
    ],
    [
      "fl",
      "u"
    ],
    [
      "ch",
      "amp"
    ]
  ]
}